// Auto-generated by train_mlp_tflite.py — do not edit
#include "emg_model_data.h"
const int g_model_len = 6784;
alignas(8) const unsigned char g_model[] = {
  0x20, 0x00, 0x00, 0x00, 0x54, 0x46, 0x4c, 0x33, 0x00, 0x00, 0x00, 0x00, 0x14, 0x00, 0x20, 0x00, 0x1c, 0x00, 0x18, 0x00, 0x14, 0x00, 0x10, 0x00, 0x0c, 0x00, 0x00, 0x00, 0x08, 0x00, 0x04, 0x00, 0x14, 0x00, 0x00, 0x00, 0x1c, 0x00, 0x00, 0x00, 0x98, 0x00, 0x00, 0x00, 0xf0, 0x00, 0x00, 0x00, 0xd4, 0x0d, 0x00, 0x00, 0xe4, 0x0d, 0x00, 0x00, 0x10, 0x1a, 0x00, 0x00, 0x03, 0x00, 0x00, 0x00, 0x01, 0x00, 0x00, 0x00, 0x10, 0x00, 0x00, 0x00, 0x00, 0x00, 0x0a, 0x00, 0x10, 0x00, 0x0c, 0x00, 0x08, 0x00, 0x04, 0x00, 0x0a, 0x00, 0x00, 0x00, 0x0c, 0x00, 0x00, 0x00, 0x1c, 0x00, 0x00, 0x00, 0x3c, 0x00, 0x00, 0x00, 0x0f, 0x00, 0x00, 0x00, 0x73, 0x65, 0x72, 0x76, 0x69, 0x6e, 0x67, 0x5f, 0x64, 0x65, 0x66, 0x61, 0x75, 0x6c, 0x74, 0x00, 0x01, 0x00, 0x00, 0x00, 0x04, 0x00, 0x00, 0x00, 0x90, 0xff, 0xff, 0xff, 0x0a, 0x00, 0x00, 0x00, 0x04, 0x00, 0x00, 0x00, 0x08, 0x00, 0x00, 0x00, 0x6f, 0x75, 0x74, 0x70, 0x75, 0x74, 0x5f, 0x30, 0x00, 0x00, 0x00, 0x00, 0x01, 0x00, 0x00, 0x00, 0x04, 0x00, 0x00, 0x00, 0x12, 0xf2, 0xff, 0xff, 0x04, 0x00, 0x00, 0x00, 0x0c, 0x00, 0x00, 0x00, 0x6b, 0x65, 0x72, 0x61, 0x73, 0x5f, 0x74, 0x65, 0x6e, 0x73, 0x6f, 0x72, 0x00, 0x00, 0x00, 0x00, 0x02, 0x00, 0x00, 0x00, 0x34, 0x00, 0x00, 0x00, 0x04, 0x00, 0x00, 0x00, 0xdc, 0xff, 0xff, 0xff, 0x0d, 0x00, 0x00, 0x00, 0x04, 0x00, 0x00, 0x00, 0x13, 0x00, 0x00, 0x00, 0x43, 0x4f, 0x4e, 0x56, 0x45, 0x52, 0x53, 0x49, 0x4f, 0x4e, 0x5f, 0x4d, 0x45, 0x54, 0x41, 0x44, 0x41, 0x54, 0x41, 0x00, 0x08, 0x00, 0x0c, 0x00, 0x08, 0x00, 0x04, 0x00, 0x08, 0x00, 0x00, 0x00, 0x0c, 0x00, 0x00, 0x00, 0x04, 0x00, 0x00, 0x00, 0x13, 0x00, 0x00, 0x00, 0x6d, 0x69, 0x6e, 0x5f, 0x72, 0x75, 0x6e, 0x74, 0x69, 0x6d, 0x65, 0x5f, 0x76, 0x65, 0x72, 0x73, 0x69, 0x6f, 0x6e, 0x00, 0x0e, 0x00, 0x00, 0x00, 0xe0, 0x0c, 0x00, 0x00, 0xd8, 0x0c, 0x00, 0x00, 0xb4, 0x0c, 0x00, 0x00, 0x54, 0x0c, 0x00, 0x00, 0x04, 0x0c, 0x00, 0x00, 0xf4, 0x09, 0x00, 0x00, 0x64, 0x09, 0x00, 0x00, 0xb4, 0x00, 0x00, 0x00, 0xac, 0x00, 0x00, 0x00, 0xa4, 0x00, 0x00, 0x00, 0x9c, 0x00, 0x00, 0x00, 0x94, 0x00, 0x00, 0x00, 0x74, 0x00, 0x00, 0x00, 0x04, 0x00, 0x00, 0x00, 0xc6, 0xf2, 0xff, 0xff, 0x04, 0x00, 0x00, 0x00, 0x60, 0x00, 0x00, 0x00, 0x0c, 0x00, 0x00, 0x00, 0x08, 0x00, 0x0e, 0x00, 0x08, 0x00, 0x04, 0x00, 0x08, 0x00, 0x00, 0x00, 0x10, 0x00, 0x00, 0x00, 0x28, 0x00, 0x00, 0x00, 0x00, 0x00, 0x06, 0x00, 0x08, 0x00, 0x04, 0x00, 0x06, 0x00, 0x00, 0x00, 0x04, 0x00, 0x00, 0x00, 0x01, 0x00, 0x00, 0x00, 0xeb, 0x03, 0x00, 0x00, 0x0c, 0x00, 0x18, 0x00, 0x14, 0x00, 0x10, 0x00, 0x0c, 0x00, 0x04, 0x00, 0x0c, 0x00, 0x00, 0x00, 0xce, 0xae, 0xc0, 0x93, 0x5a, 0x4f, 0x9c, 0xbf, 0x02, 0x00, 0x00, 0x00, 0x02, 0x00, 0x00, 0x00, 0x04, 0x00, 0x00, 0x00, 0x06, 0x00, 0x00, 0x00, 0x32, 0x2e, 0x32, 0x31, 0x2e, 0x30, 0x00, 0x00, 0x32, 0xf3, 0xff, 0xff, 0x04, 0x00, 0x00, 0x00, 0x10, 0x00, 0x00, 0x00, 0x31, 0x2e, 0x31, 0x34, 0x2e, 0x30, 0x00, 0x00, 0x00, 0x00, 0x00, 0x00, 0x00, 0x00, 0x00, 0x00, 0x1c, 0xf3, 0xff, 0xff, 0x20, 0xf3, 0xff, 0xff, 0x24, 0xf3, 0xff, 0xff, 0x28, 0xf3, 0xff, 0xff, 0x5e, 0xf3, 0xff, 0xff, 0x04, 0x00, 0x00, 0x00, 0xa0, 0x08, 0x00, 0x00, 0xed, 0xe8, 0x10, 0xdd, 0x36, 0xf0, 0x1d, 0xd1, 0xb3, 0xba, 0x34, 0x19, 0x2f, 0xf0, 0xf5, 0xa2, 0x96, 0xb0, 0xd7, 0xf5, 0x34, 0xfe, 0xfb, 0xed, 0x17, 0xd0, 0x38, 0xf4, 0xde, 0xf3, 0x05, 0x20, 0x47, 0x01, 0xee, 0xcc, 0x37, 0xe5, 0xf3, 0x46, 0xfa, 0x13, 0x16, 0xfd, 0xef, 0xeb, 0x31, 0x0c, 0x9e, 0x93, 0xe8, 0x13, 0x26, 0xf2, 0xfb, 0xe5, 0x18, 0x16, 0xc9, 0xe8, 0xd4, 0xde, 0x3a, 0x05, 0x7f, 0xbf, 0xdd, 0xb7, 0x46, 0x04, 0x38, 0xfc, 0xcd, 0xf4, 0x38, 0x12, 0x02, 0xff, 0x03, 0x18, 0x06, 0xfb, 0x20, 0x03, 0x18, 0xf4, 0xe5, 0xf7, 0xf6, 0x7f, 0x94, 0x1b, 0x3c, 0xfc, 0x1e, 0x1a, 0x01, 0x24, 0x41, 0x34, 0x24, 0x49, 0x1d, 0xff, 0x5b, 0xfd, 0x00, 0x19, 0x00, 0xf4, 0x7f, 0xe5, 0x17, 0xc5, 0x1f, 0xc7, 0xf2, 0x29, 0xfa, 0xf0, 0xfe, 0xdd, 0xc9, 0xf8, 0x2d, 0x08, 0x13, 0x1b, 0x36, 0xd4, 0x4d, 0x24, 0x03, 0xa0, 0xee, 0xb4, 0x44, 0x38, 0x08, 0xe5, 0x02, 0xfe, 0x09, 0xe1, 0x3a, 0xfd, 0x03, 0x81, 0xc3, 0xd8, 0xe7, 0xe3, 0x08, 0xdb, 0xe4, 0xdf, 0x06, 0x16, 0xda, 0x5e, 0xfe, 0x12, 0x2a, 0x0c, 0x47, 0xfb, 0xe5, 0x9f, 0xce, 0xf3, 0xc2, 0xe3, 0x0a, 0xde, 0x15, 0x28, 0x01, 0xf0, 0xa5, 0x07, 0x0e, 0x00, 0x40, 0xa3, 0x55, 0xf9, 0x20, 0x41, 0x19, 0xed, 0x43, 0x08, 0xfd, 0xd7, 0x0d, 0x1e, 0x0d, 0xbc, 0xe2, 0xcd, 0xf9, 0xea, 0x22, 0x1d, 0x0b, 0xc1, 0xfd, 0xc0, 0x1c, 0x17, 0xf0, 0xfb, 0x6f, 0xd2, 0xf9, 0xd1, 0x0e, 0x1f, 0x09, 0xdf, 0xf4, 0x00, 0x19, 0xa5, 0xb2, 0x33, 0xed, 0x13, 0x86, 0x13, 0x15, 0x60, 0x8b, 0x6d, 0x22, 0x14, 0x1f, 0x29, 0x40, 0x3d, 0x30, 0x0b, 0x94, 0x32, 0x53, 0xe3, 0x31, 0x46, 0x6e, 0x2b, 0x06, 0xf0, 0x0f, 0xd2, 0xfc, 0xff, 0xba, 0x09, 0x0b, 0xa0, 0x30, 0x05, 0xfd, 0x24, 0x1b, 0x1d, 0x53, 0x26, 0x19, 0x91, 0x3a, 0x9b, 0xef, 0x18, 0x81, 0x36, 0x30, 0xf8, 0x05, 0x0c, 0xfb, 0x42, 0xd8, 0xed, 0xeb, 0xf2, 0x27, 0x53, 0xe3, 0x07, 0xf3, 0xe2, 0x54, 0x29, 0x0f, 0x15, 0x38, 0xdc, 0xf6, 0x08, 0x0a, 0x15, 0xe9, 0x09, 0x93, 0x23, 0x29, 0x2a, 0xc5, 0x13, 0xf8, 0x0e, 0x1b, 0x0e, 0x06, 0xec, 0x66, 0xfd, 0xfb, 0x19, 0xa7, 0xfe, 0xc2, 0xf8, 0x4a, 0x04, 0xe8, 0xe6, 0x3b, 0xf8, 0x09, 0xfd, 0x0d, 0xf1, 0xf4, 0xed, 0xef, 0x14, 0x17, 0xed, 0xf2, 0x24, 0x07, 0x81, 0xec, 0xda, 0x7f, 0xe5, 0x05, 0x91, 0x39, 0xa2, 0xf4, 0xf4, 0x15, 0x18, 0x16, 0xc3, 0xff, 0x05, 0xfb, 0x40, 0x44, 0x3b, 0x29, 0x17, 0xc4, 0xee, 0xe8, 0xb6, 0x3a, 0xcd, 0xef, 0xe6, 0xb6, 0xfb, 0xfd, 0x1f, 0x17, 0xfd, 0x5d, 0xb4, 0xfa, 0x03, 0x1f, 0xde, 0xac, 0xe9, 0x29, 0xcd, 0xf3, 0xcd, 0x01, 0x1b, 0xbf, 0xc7, 0xdc, 0x33, 0xce, 0x13, 0xf9, 0xef, 0x1b, 0xf8, 0x06, 0x04, 0x1b, 0x0a, 0x27, 0x12, 0xe1, 0x18, 0xbb, 0xc9, 0xfd, 0x06, 0x08, 0x35, 0x20, 0x7f, 0x3a, 0xf9, 0x56, 0xed, 0xf1, 0xed, 0x12, 0x0e, 0x09, 0x17, 0x1a, 0xf5, 0xeb, 0x1f, 0x42, 0x1c, 0x07, 0xd6, 0x16, 0xdf, 0x08, 0x1d, 0x06, 0xe8, 0x19, 0x30, 0xf4, 0xf4, 0x04, 0xf4, 0xea, 0xf8, 0xc4, 0xeb, 0x50, 0xe4, 0xe5, 0x31, 0xf2, 0x11, 0xf9, 0x14, 0xec, 0xce, 0xe9, 0xdf, 0xf2, 0xfd, 0xbd, 0x0f, 0x25, 0x26, 0xf6, 0x2e, 0x57, 0x3c, 0xd1, 0x19, 0xdb, 0xea, 0xd0, 0xc5, 0x1e, 0x0b, 0xa5, 0x09, 0x25, 0xcc, 0xbb, 0xb6, 0xf8, 0xc8, 0xfe, 0x16, 0x06, 0x0c, 0xf2, 0xf9, 0xb6, 0xed, 0xfb, 0x20, 0xcf, 0x18, 0xb2, 0x16, 0x09, 0xda, 0x81, 0xd8, 0xed, 0x0f, 0x02, 0xf2, 0x04, 0x14, 0xf5, 0x04, 0xc5, 0x05, 0xfd, 0xfc, 0x1e, 0x18, 0x06, 0x0b, 0x10, 0xab, 0x32, 0xa1, 0xe1, 0xce, 0x04, 0x04, 0xf2, 0xe6, 0x0c, 0xf0, 0x2e, 0x1b, 0x07, 0x0b, 0xf9, 0xff, 0x43, 0xfa, 0xf9, 0xe3, 0x02, 0x25, 0xe6, 0xe0, 0xbd, 0xbd, 0x05, 0x05, 0xfb, 0xe2, 0xea, 0x0a, 0x24, 0xeb, 0xec, 0x06, 0xe8, 0xf5, 0xff, 0xdd, 0x07, 0x1a, 0x1f, 0x12, 0xe2, 0x57, 0x06, 0x0f, 0x1b, 0x44, 0x15, 0x19, 0x38, 0x07, 0xe8, 0xde, 0x1f, 0x1f, 0x00, 0x18, 0x0a, 0xe4, 0xce, 0xfd, 0x02, 0xbe, 0xee, 0xef, 0x14, 0x29, 0xfc, 0x19, 0x06, 0x51, 0x16, 0x06, 0x49, 0xcb, 0x0d, 0x13, 0xf9, 0x23, 0x33, 0xf7, 0x0a, 0xe0, 0x0f, 0xea, 0x7f, 0xfc, 0x32, 0x9e, 0xd0, 0x16, 0x27, 0x15, 0xc4, 0xeb, 0xda, 0xff, 0x09, 0xe9, 0x00, 0x03, 0xef, 0xe0, 0x00, 0x03, 0xc5, 0x4c, 0x55, 0xf8, 0xec, 0xd6, 0xe9, 0xf4, 0xfd, 0xbd, 0x3f, 0xc9, 0xfe, 0x25, 0x25, 0x08, 0xe9, 0x37, 0x15, 0x03, 0x35, 0xf0, 0xf7, 0xe3, 0xf3, 0xec, 0x81, 0x18, 0xe1, 0x35, 0xb0, 0x2b, 0x20, 0xdf, 0x38, 0x26, 0x1e, 0x41, 0xcc, 0x05, 0xd9, 0x17, 0xf2, 0x06, 0xe0, 0xf8, 0xa1, 0x03, 0xf4, 0x4b, 0x0a, 0x22, 0x18, 0xeb, 0xcf, 0xd7, 0xf3, 0xf6, 0x27, 0xff, 0x14, 0x0c, 0x0d, 0x18, 0x07, 0xdb, 0x33, 0xfe, 0xff, 0xfc, 0xdc, 0xec, 0xf0, 0xf2, 0x1b, 0xf9, 0xd4, 0xf0, 0x11, 0xa0, 0x16, 0xfa, 0xf1, 0xe7, 0xd7, 0xe6, 0xf5, 0x10, 0xef, 0x81, 0x1a, 0xf2, 0x17, 0x09, 0x3b, 0xcf, 0xfd, 0x0e, 0xce, 0x2c, 0xcc, 0x0d, 0xdf, 0xdc, 0x10, 0x18, 0x0e, 0x10, 0x05, 0x25, 0x45, 0x3e, 0x18, 0x0e, 0x28, 0x05, 0xed, 0xd0, 0xdd, 0x23, 0x43, 0xa1, 0xf5, 0x1b, 0xcc, 0x0d, 0xf4, 0xe2, 0xfb, 0xc8, 0xfa, 0xef, 0xdd, 0x02, 0xf9, 0xeb, 0x0f, 0x00, 0xde, 0x17, 0x24, 0x24, 0xf8, 0xe1, 0x07, 0xf5, 0x30, 0xd7, 0xea, 0xd5, 0xea, 0x13, 0xe8, 0xe7, 0x04, 0x37, 0xeb, 0x0c, 0xde, 0xf6, 0xf0, 0xd3, 0x0c, 0x96, 0x0e, 0xe8, 0xe2, 0x1a, 0xf0, 0x2b, 0xf8, 0x0e, 0xfb, 0xe0, 0xe9, 0x03, 0x0a, 0xe3, 0xe8, 0xfc, 0xcf, 0xdb, 0x05, 0x04, 0x05, 0xfb, 0x12, 0x5c, 0xeb, 0x33, 0x7f, 0xd5, 0x37, 0x81, 0x00, 0xff, 0xbb, 0xe3, 0xd1, 0x00, 0xf3, 0xf3, 0x04, 0x0d, 0x2f, 0x12, 0xf1, 0xc3, 0x07, 0x06, 0xf7, 0xfd, 0x0a, 0xa8, 0x02, 0xfd, 0xd9, 0x0c, 0xe0, 0xfd, 0x09, 0x1b, 0x09, 0x07, 0x0f, 0xeb, 0xfe, 0x1d, 0xf1, 0x16, 0x34, 0x09, 0x2b, 0xdb, 0xfd, 0xfe, 0xd6, 0xdf, 0xef, 0x06, 0xe3, 0xc6, 0xee, 0xf3, 0x09, 0xfe, 0x00, 0xdf, 0x01, 0xf9, 0xfc, 0xfc, 0xe6, 0x2f, 0x10, 0xf2, 0x0b, 0x09, 0xfd, 0xcf, 0xf0, 0xc2, 0x3f, 0xff, 0x04, 0x35, 0xf5, 0x37, 0x02, 0x10, 0xea, 0xf4, 0x10, 0x14, 0xd8, 0xff, 0xdf, 0x04, 0x19, 0x10, 0x16, 0xc3, 0x2d, 0x0f, 0xe2, 0x0d, 0xf1, 0x39, 0x18, 0x1b, 0x08, 0xfe, 0xe8, 0x1d, 0xfb, 0x18, 0xfe, 0x02, 0xad, 0xd0, 0xc0, 0x13, 0x81, 0x0b, 0xdc, 0x2b, 0xd9, 0x49, 0x05, 0xe4, 0xed, 0x15, 0x1e, 0x4e, 0x0c, 0x0a, 0xd3, 0xe9, 0xe4, 0xd8, 0xea, 0xe2, 0xe3, 0xe9, 0x00, 0x58, 0x02, 0xfe, 0xba, 0xda, 0xb4, 0x68, 0xec, 0x10, 0x46, 0x4a, 0x26, 0x04, 0xe0, 0xd8, 0xfa, 0x1c, 0xcd, 0xe5, 0x08, 0x14, 0x29, 0x38, 0x16, 0x14, 0xbd, 0x27, 0x08, 0x12, 0x7a, 0xcb, 0x4a, 0xdc, 0x14, 0xec, 0x03, 0xfc, 0xaf, 0xf2, 0x06, 0xb7, 0x55, 0x33, 0x33, 0x10, 0xf3, 0x59, 0xfc, 0xed, 0x44, 0x30, 0x59, 0x04, 0xd4, 0xc2, 0xdd, 0xbc, 0x87, 0x19, 0x16, 0x21, 0xd8, 0xdf, 0x46, 0x21, 0xef, 0x45, 0x05, 0x3b, 0xb3, 0xd5, 0xea, 0x7f, 0xe1, 0x25, 0xf6, 0x10, 0x00, 0xc3, 0x27, 0xda, 0x0c, 0xf5, 0xf8, 0xf4, 0xe9, 0x85, 0xe8, 0xeb, 0x11, 0x4a, 0x70, 0x65, 0x23, 0x0d, 0xb2, 0x04, 0xe1, 0x25, 0x01, 0xd8, 0x17, 0xde, 0xdd, 0xe9, 0x10, 0x00, 0xee, 0x0b, 0xa9, 0xe7, 0x15, 0xf6, 0x35, 0xa3, 0x81, 0xff, 0x06, 0x1f, 0xd5, 0x31, 0xfc, 0x5a, 0x4e, 0xde, 0xc9, 0x10, 0x21, 0x0a, 0xa4, 0xcc, 0xbd, 0xff, 0xc9, 0x3e, 0xdd, 0xd7, 0xe7, 0x4e, 0x10, 0x77, 0x56, 0xc9, 0xb2, 0xec, 0xcb, 0xfe, 0x37, 0x29, 0x3a, 0x11, 0xc8, 0x12, 0x09, 0x00, 0x2a, 0x17, 0xf7, 0x1c, 0x14, 0xcc, 0x0f, 0xf0, 0xbf, 0x58, 0xe5, 0x0f, 0x00, 0x17, 0x0f, 0xe8, 0x43, 0x6a, 0x13, 0x07, 0x05, 0x46, 0x10, 0x11, 0xdc, 0x92, 0xc6, 0x1d, 0x06, 0x0a, 0xee, 0x14, 0x3b, 0xf9, 0x36, 0xfc, 0xb1, 0x0f, 0x27, 0x25, 0x1f, 0x03, 0x11, 0x09, 0xe6, 0xdc, 0x00, 0xeb, 0x17, 0x81, 0xf5, 0xe7, 0xa8, 0x20, 0xd6, 0x1e, 0xe9, 0xc2, 0x81, 0xfd, 0xf7, 0xf5, 0xe4, 0x20, 0x08, 0xf6, 0x36, 0xfd, 0xbe, 0xfc, 0x1e, 0xe1, 0xf6, 0xfa, 0xff, 0x9c, 0x33, 0xcf, 0xdb, 0xfc, 0x0e, 0xd9, 0x25, 0xbe, 0xf9, 0xf6, 0x3e, 0x0e, 0xef, 0x0c, 0x2d, 0x1e, 0x52, 0xc3, 0xd6, 0xf2, 0x40, 0xb0, 0xfd, 0xe8, 0xe3, 0xe4, 0xf4, 0xe9, 0xed, 0x00, 0xf3, 0x08, 0xf5, 0x54, 0xf7, 0x0c, 0xef, 0xbf, 0xd8, 0xeb, 0xd4, 0x09, 0xba, 0x08, 0xfa, 0xcb, 0xe9, 0x0d, 0xda, 0xe1, 0x06, 0xed, 0xf4, 0xdc, 0xb7, 0xdb, 0xb3, 0x01, 0xcd, 0xd5, 0xf1, 0x05, 0xda, 0x20, 0xeb, 0xf8, 0x5e, 0x2c, 0x32, 0x11, 0xf2, 0xa6, 0x1b, 0x10, 0xc7, 0xba, 0xe7, 0xfc, 0xe3, 0xec, 0x01, 0x15, 0xeb, 0xf0, 0x08, 0x92, 0xe7, 0x18, 0xf4, 0xfa, 0xa3, 0x10, 0xfd, 0xd6, 0xc8, 0x28, 0xf2, 0xf9, 0x26, 0x4a, 0x16, 0x17, 0x20, 0x14, 0x09, 0x07, 0xe3, 0xb9, 0x97, 0xe7, 0x01, 0xed, 0x03, 0xe5, 0x28, 0x0d, 0xf8, 0x7f, 0xd3, 0xed, 0x02, 0xee, 0xfb, 0xbb, 0xb6, 0xc7, 0x0e, 0xe8, 0x24, 0x09, 0x1b, 0xe6, 0x0f, 0xfe, 0x81, 0xf4, 0x0f, 0xf3, 0xe9, 0x20, 0xa5, 0x0a, 0x3a, 0xaf, 0xd1, 0xbb, 0xf4, 0x14, 0x43, 0x33, 0x34, 0x38, 0x41, 0xf2, 0x02, 0xbc, 0xe6, 0xc0, 0xd3, 0xb3, 0xa5, 0xfd, 0x05, 0xe5, 0x31, 0xf4, 0x16, 0xc3, 0xca, 0xf5, 0xcc, 0x2e, 0xda, 0x03, 0x2b, 0x0b, 0xbb, 0xfa, 0xe9, 0xe2, 0x28, 0x0d, 0x20, 0x27, 0xe1, 0xd7, 0x4e, 0xfa, 0xef, 0x3d, 0xf4, 0x25, 0xb8, 0x5e, 0xd2, 0x07, 0xb4, 0xe4, 0xf9, 0x04, 0xa5, 0x01, 0x07, 0x24, 0x1f, 0x3c, 0x66, 0xe0, 0x08, 0x81, 0x02, 0xdd, 0xc7, 0xf2, 0xb7, 0x01, 0xd0, 0xcc, 0x04, 0xe0, 0x0f, 0xfe, 0x0e, 0xdc, 0xf1, 0x23, 0xe9, 0xd9, 0xe8, 0x9a, 0xec, 0x52, 0x14, 0x1e, 0xfd, 0xe4, 0x18, 0xb7, 0xd9, 0xea, 0x76, 0xee, 0xea, 0x28, 0xd4, 0xed, 0xfc, 0x36, 0xeb, 0x39, 0xf1, 0xbd, 0x0a, 0x14, 0xfa, 0x5b, 0xdd, 0xbc, 0x39, 0x05, 0xe5, 0x14, 0xdd, 0x14, 0x01, 0xbd, 0x04, 0x18, 0x21, 0xe7, 0xd8, 0x0f, 0xdc, 0xe1, 0x24, 0xf2, 0x0b, 0xad, 0xe2, 0x27, 0xec, 0x02, 0xc9, 0x19, 0x12, 0xfa, 0xf4, 0x22, 0x13, 0x14, 0x0c, 0xfc, 0x81, 0xeb, 0xf2, 0xdc, 0x9b, 0xfb, 0x0e, 0xd2, 0x20, 0xef, 0x4c, 0xc8, 0x0c, 0x0f, 0xb8, 0xa6, 0xab, 0xdb, 0xe5, 0x0f, 0x64, 0x03, 0x12, 0x13, 0x57, 0xc1, 0x19, 0x1f, 0x27, 0x09, 0xcf, 0xc8, 0x43, 0x0b, 0xea, 0x51, 0x16, 0x03, 0x41, 0xd8, 0x33, 0x00, 0xdd, 0xc3, 0xfc, 0xf0, 0xe0, 0x03, 0x02, 0xdc, 0xf1, 0xe9, 0xeb, 0xc1, 0xd5, 0x2c, 0xfb, 0x0e, 0x0b, 0xfb, 0x1e, 0xec, 0xca, 0xc6, 0xf1, 0xff, 0xd2, 0x20, 0x01, 0xe8, 0x11, 0x01, 0xf6, 0xe8, 0x0b, 0xfe, 0x05, 0x1a, 0x24, 0xdf, 0x20, 0xfb, 0xea, 0x81, 0xe8, 0x27, 0xd9, 0x0c, 0xf6, 0xe4, 0x52, 0x3b, 0x34, 0x0d, 0xff, 0xf9, 0x07, 0x21, 0xe5, 0x01, 0xe9, 0x1d, 0x1a, 0xf2, 0xa0, 0x0e, 0x00, 0xb2, 0x7f, 0xb1, 0x07, 0x06, 0x2d, 0x22, 0x11, 0x2c, 0x0b, 0x01, 0x5e, 0xff, 0xf4, 0x09, 0xe5, 0x52, 0xcf, 0x11, 0x16, 0xc8, 0x14, 0xf2, 0x03, 0x13, 0x2b, 0x03, 0xf8, 0x57, 0xe9, 0x01, 0x18, 0x00, 0x01, 0x10, 0x0f, 0x40, 0xc3, 0xff, 0x31, 0xec, 0xbc, 0x03, 0xf5, 0x0f, 0xde, 0xee, 0x06, 0xe4, 0x43, 0xf4, 0xc7, 0x03, 0xfa, 0xf8, 0x2c, 0xdc, 0xc8, 0x25, 0xec, 0xf7, 0x2a, 0x2c, 0xa6, 0xd0, 0x33, 0x6b, 0x0f, 0xc1, 0xf9, 0x7f, 0xf0, 0xfc, 0xad, 0xe9, 0x2f, 0x34, 0xfb, 0xb3, 0xff, 0x21, 0x2f, 0x60, 0x53, 0x0f, 0x6b, 0xa8, 0x1c, 0x13, 0x17, 0x15, 0x38, 0xdd, 0xf1, 0x1b, 0x44, 0x0f, 0x5b, 0x10, 0xea, 0x66, 0x2a, 0x4f, 0x11, 0x09, 0xb7, 0x78, 0xe7, 0xf6, 0x13, 0x6a, 0x0b, 0xd6, 0xe8, 0xcc, 0xb5, 0xf5, 0x1c, 0x87, 0xfe, 0x75, 0xed, 0x0f, 0x31, 0x77, 0xda, 0x78, 0x15, 0x06, 0xf2, 0xf7, 0xcc, 0x54, 0x05, 0x46, 0x81, 0x05, 0xf0, 0xd6, 0xcb, 0x03, 0x03, 0x15, 0xaf, 0xd3, 0xe2, 0x01, 0x02, 0x01, 0xda, 0x19, 0x0a, 0x1a, 0x3c, 0x33, 0xe1, 0x11, 0xce, 0xda, 0xf7, 0xcc, 0xf3, 0x27, 0xeb, 0xe9, 0xee, 0x26, 0xee, 0xf8, 0xcf, 0x0c, 0x1f, 0xee, 0x26, 0x19, 0x9d, 0x0a, 0x28, 0xf3, 0x0b, 0x08, 0x00, 0x31, 0x00, 0xea, 0xf3, 0x3f, 0x03, 0x02, 0xfd, 0x0a, 0xdf, 0xeb, 0xdc, 0xed, 0x0b, 0x08, 0xe2, 0x58, 0x20, 0x0e, 0xd9, 0xed, 0x36, 0xc4, 0x0d, 0xff, 0x0d, 0xb4, 0x22, 0xf9, 0x19, 0x26, 0xef, 0xe4, 0x14, 0x04, 0x03, 0xbc, 0xed, 0xe3, 0x1f, 0x05, 0xa4, 0x2f, 0x23, 0xf9, 0x1d, 0x4a, 0x27, 0x0c, 0x40, 0x25, 0xeb, 0xba, 0xe4, 0xe6, 0xef, 0x30, 0x07, 0x00, 0x40, 0xe7, 0xd5, 0x7f, 0xfe, 0xd3, 0xf2, 0xd0, 0xf6, 0xf0, 0x0b, 0xce, 0xd7, 0xf1, 0xb8, 0xed, 0xf4, 0xa4, 0x20, 0x1f, 0x0e, 0x14, 0x19, 0x4f, 0x11, 0xf1, 0xd1, 0x02, 0xd2, 0xf2, 0x23, 0x60, 0xac, 0x14, 0x03, 0x2e, 0x19, 0x0f, 0x12, 0x08, 0x81, 0xc6, 0xf5, 0x12, 0xdb, 0xf9, 0x1a, 0x30, 0x2d, 0xed, 0x11, 0x55, 0xeb, 0xfb, 0xe9, 0x4f, 0xbd, 0x53, 0x00, 0x0c, 0xc9, 0xe9, 0xf5, 0x19, 0x24, 0x04, 0x8f, 0x22, 0xe0, 0x15, 0x21, 0xe4, 0x0c, 0xf6, 0xf9, 0x5d, 0xb7, 0x4b, 0x00, 0x2b, 0x3c, 0x0f, 0xf4, 0x38, 0xce, 0xfa, 0xbd, 0xdd, 0xe2, 0x0e, 0xc7, 0x0d, 0xed, 0xd6, 0xfa, 0x64, 0x1f, 0x23, 0x56, 0x41, 0xec, 0x0f, 0x17, 0x12, 0xe0, 0x05, 0xec, 0xf0, 0x18, 0xca, 0xec, 0xeb, 0xba, 0xfe, 0x09, 0x31, 0xe7, 0x08, 0x13, 0xfa, 0xb3, 0x51, 0x06, 0xfc, 0xec, 0x05, 0xea, 0xd3, 0xd4, 0xc7, 0xd9, 0xe0, 0xf8, 0xf9, 0xff, 0xbe, 0x1e, 0x08, 0x1d, 0xfd, 0x81, 0x41, 0x00, 0x14, 0x32, 0xfa, 0x1c, 0xe5, 0xeb, 0xd8, 0xe7, 0xd6, 0xca, 0xe1, 0xf6, 0x0d, 0x17, 0x19, 0x09, 0x0c, 0x22, 0xc8, 0x26, 0xf1, 0xf3, 0xf0, 0x02, 0x1f, 0xf4, 0xcd, 0x81, 0xfe, 0xe8, 0xf2, 0xf7, 0x1d, 0x04, 0xf1, 0x2c, 0x21, 0xff, 0x0f, 0x04, 0x11, 0x02, 0x02, 0x09, 0x02, 0xe3, 0xe6, 0xec, 0x09, 0xdc, 0x0d, 0xf4, 0x03, 0x04, 0x26, 0x2e, 0x04, 0xea, 0x2b, 0x01, 0xf9, 0xe4, 0xe3, 0x03, 0x04, 0x1e, 0xb3, 0x23, 0xf1, 0x05, 0xf4, 0xa9, 0xfa, 0x0f, 0xf5, 0xe8, 0xfd, 0xf9, 0xe0, 0x10, 0xfc, 0xa7, 0xea, 0xef, 0x03, 0xfe, 0x02, 0xa7, 0xf8, 0x18, 0xd6, 0xca, 0x11, 0x92, 0xe6, 0x00, 0x8e, 0x0c, 0xfd, 0x12, 0xd7, 0x21, 0xfd, 0x16, 0xfe, 0xd8, 0xce, 0x0c, 0xfb, 0xf6, 0x00, 0xec, 0xe2, 0xfd, 0xe8, 0x7f, 0x0f, 0x02, 0xf8, 0xee, 0xfe, 0xfc, 0x06, 0xf4, 0x22, 0x0e, 0xe0, 0xed, 0xee, 0xfa, 0x07, 0xb1, 0xf1, 0x21, 0xf1, 0x00, 0xe0, 0x1e, 0x39, 0xde, 0x2f, 0xec, 0xf6, 0x3c, 0xd5, 0xdd, 0xe8, 0xeb, 0x14, 0xf7, 0x33, 0x10, 0x10, 0x11, 0xf1, 0xe5, 0xf3, 0x2d, 0xe6, 0xa6, 0x0e, 0xd8, 0x20, 0x1e, 0xdc, 0x68, 0x00, 0x0c, 0x0a, 0x32, 0xf6, 0xfd, 0x0f, 0x1e, 0x02, 0xf2, 0xe2, 0xd7, 0x01, 0x52, 0x05, 0x20, 0x24, 0x06, 0xf0, 0x42, 0x12, 0x1b, 0x06, 0x12, 0xdd, 0xed, 0x33, 0xea, 0xf5, 0xfe, 0x00, 0xf0, 0xfe, 0x38, 0xed, 0x01, 0xfb, 0x0c, 0xad, 0x11, 0xf4, 0x25, 0x10, 0x16, 0xfc, 0xfc, 0xf2, 0xa2, 0xbe, 0xd7, 0xfd, 0xf8, 0x04, 0x04, 0xee, 0xf2, 0xfd, 0x0b, 0xe1, 0xe7, 0x0c, 0x03, 0x81, 0xef, 0x0d, 0x0f, 0xe4, 0x0a, 0xfc, 0xff, 0xff, 0x04, 0x00, 0x00, 0x00, 0x80, 0x00, 0x00, 0x00, 0x04, 0xff, 0xff, 0xff, 0xa3, 0xfe, 0xff, 0xff, 0x2c, 0x00, 0x00, 0x00, 0x9a, 0xff, 0xff, 0xff, 0x4c, 0xfe, 0xff, 0xff, 0x51, 0xfc, 0xff, 0xff, 0x6e, 0xfc, 0xff, 0xff, 0x32, 0xf4, 0xff, 0xff, 0x26, 0xfe, 0xff, 0xff, 0xc5, 0xf5, 0xff, 0xff, 0xf5, 0xfb, 0xff, 0xff, 0xdd, 0xf9, 0xff, 0xff, 0x81, 0xfd, 0xff, 0xff, 0xbc, 0xfd, 0xff, 0xff, 0x76, 0xfc, 0xff, 0xff, 0xd1, 0xee, 0xff, 0xff, 0xa4, 0xf6, 0xff, 0xff, 0x0c, 0xfa, 0xff, 0xff, 0x75, 0xf8, 0xff, 0xff, 0x0d, 0xf9, 0xff, 0xff, 0x5e, 0xf9, 0xff, 0xff, 0xf2, 0xfe, 0xff, 0xff, 0xce, 0xfe, 0xff, 0xff, 0x02, 0xfb, 0xff, 0xff, 0x35, 0xf7, 0xff, 0xff, 0x4e, 0xfc, 0xff, 0xff, 0x53, 0xfd, 0xff, 0xff, 0xa1, 0xfa, 0xff, 0xff, 0x97, 0xfe, 0xff, 0xff, 0x56, 0xf8, 0xff, 0xff, 0x76, 0xfb, 0xff, 0xff, 0x92, 0xfb, 0xff, 0xff, 0x96, 0xfc, 0xff, 0xff, 0x04, 0x00, 0x00, 0x00, 0x00, 0x02, 0x00, 0x00, 0x09, 0xc9, 0xea, 0x14, 0x16, 0x81, 0x18, 0x0c, 0xce, 0xfa, 0x07, 0x0f, 0x15, 0xe2, 0x3d, 0x06, 0x0f, 0x0d, 0x05, 0x0e, 0x05, 0x1a, 0x19, 0xe3, 0xf0, 0xf8, 0x10, 0xf6, 0x29, 0x11, 0x14, 0xd2, 0xf9, 0xf7, 0xfb, 0x00, 0x04, 0xf2, 0x01, 0x81, 0x05, 0x15, 0xb5, 0x01, 0x03, 0xfe, 0xe5, 0x20, 0xec, 0xf8, 0x08, 0xf7, 0xe9, 0xff, 0xfe, 0x14, 0xf4, 0x08, 0xe7, 0xfb, 0x0d, 0xef, 0xfa, 0x32, 0x08, 0x29, 0xf2, 0x42, 0x26, 0x04, 0x3a, 0xf6, 0x02, 0xe0, 0x15, 0xad, 0xec, 0xf1, 0x11, 0x81, 0x01, 0xff, 0xf9, 0x17, 0xec, 0xf3, 0x39, 0x06, 0x09, 0xfa, 0xf8, 0xda, 0x02, 0xfc, 0xf7, 0x05, 0xf4, 0x02, 0x10, 0x09, 0xbd, 0x05, 0xca, 0xb1, 0x07, 0x9f, 0xdf, 0xc3, 0x00, 0x81, 0x0d, 0xb5, 0x09, 0x06, 0xeb, 0xf3, 0xae, 0xb4, 0xf5, 0x00, 0x04, 0xd9, 0x20, 0xee, 0x17, 0x06, 0x02, 0x04, 0x09, 0xec, 0x08, 0x05, 0xf5, 0x00, 0xfc, 0x05, 0x13, 0xfb, 0xe7, 0xff, 0xea, 0xfa, 0xdb, 0xfd, 0xd3, 0xd1, 0xff, 0x03, 0x01, 0x07, 0x11, 0xea, 0x81, 0xfe, 0x05, 0x01, 0x0a, 0xfa, 0xdd, 0x93, 0x06, 0x0f, 0xa6, 0x2b, 0xe8, 0x29, 0x01, 0xf9, 0xfa, 0xf3, 0x16, 0xe8, 0x34, 0x2e, 0x45, 0x06, 0x08, 0xf4, 0xfa, 0x9a, 0x13, 0x25, 0xf8, 0x7f, 0x10, 0xfa, 0x0b, 0xf0, 0x27, 0xf9, 0x06, 0xf7, 0x2a, 0xfd, 0xf0, 0xed, 0x06, 0x28, 0xf8, 0x17, 0x63, 0x31, 0xe6, 0x7f, 0x49, 0x22, 0xfe, 0x26, 0x3d, 0x2d, 0x10, 0x38, 0x6f, 0x28, 0x95, 0x70, 0x13, 0x0c, 0xfe, 0xd9, 0xfe, 0x1f, 0x43, 0x02, 0x20, 0xf1, 0x53, 0x0a, 0xfd, 0xfa, 0xff, 0x16, 0x3e, 0x25, 0x17, 0x81, 0x0c, 0x15, 0x09, 0x6f, 0x03, 0x05, 0x09, 0xc9, 0xfe, 0x04, 0xfd, 0x66, 0xfb, 0x69, 0xed, 0x76, 0xd7, 0x0c, 0x12, 0xf6, 0x0a, 0x0d, 0xed, 0xec, 0x36, 0x2a, 0x64, 0xa8, 0xe9, 0x36, 0xb9, 0x49, 0xab, 0xf3, 0x0c, 0x1e, 0x81, 0x9f, 0x0e, 0xf1, 0xf2, 0xd6, 0x3a, 0xde, 0x11, 0x22, 0x09, 0x1d, 0xff, 0x81, 0xc8, 0xfd, 0x24, 0xde, 0x1c, 0x12, 0xfb, 0x96, 0x01, 0xf3, 0xc2, 0x05, 0x09, 0xe3, 0x47, 0x07, 0xfe, 0xdf, 0xc9, 0xe4, 0xf3, 0xdd, 0xbb, 0xfa, 0x19, 0x29, 0xcc, 0x16, 0x0a, 0x1b, 0x3c, 0xcd, 0xf6, 0x81, 0xf9, 0x5e, 0x09, 0x41, 0xec, 0xeb, 0xe6, 0xe0, 0x12, 0xae, 0xed, 0xf4, 0xde, 0xdf, 0xf9, 0xf5, 0xed, 0xfa, 0xf6, 0xff, 0xcc, 0xf3, 0x20, 0x7f, 0xf9, 0xa5, 0x0d, 0xfc, 0x02, 0x1c, 0x19, 0xf6, 0xeb, 0x01, 0xf9, 0x08, 0xed, 0xf8, 0x09, 0xed, 0x13, 0x81, 0xe9, 0xdc, 0x0b, 0xcf, 0x27, 0xdf, 0x0f, 0x08, 0xa5, 0xe9, 0xfc, 0xef, 0xf9, 0x1f, 0xfc, 0xf7, 0x02, 0xa9, 0x04, 0xf4, 0x18, 0x07, 0x2f, 0xc3, 0x18, 0x04, 0xf1, 0xd6, 0xf3, 0x84, 0x70, 0xe4, 0xec, 0x0f, 0xe0, 0x1f, 0x17, 0x8a, 0xd3, 0xe1, 0xd9, 0xf1, 0xf6, 0x20, 0xf1, 0x81, 0xc9, 0x07, 0x05, 0x06, 0x14, 0xa4, 0x0d, 0xee, 0x05, 0xef, 0x08, 0x1f, 0x02, 0xfb, 0x12, 0xea, 0x01, 0xcd, 0x16, 0xe8, 0xfb, 0xf8, 0x1b, 0xd1, 0xb4, 0xcc, 0x81, 0xad, 0xff, 0xfe, 0x0a, 0x1b, 0x00, 0x02, 0x0c, 0xfc, 0xf5, 0x87, 0xe0, 0x09, 0x02, 0x01, 0x03, 0xf2, 0x00, 0x01, 0x0a, 0xc5, 0x0c, 0x01, 0xeb, 0xfa, 0xe3, 0x10, 0x07, 0x04, 0xbe, 0xa7, 0x00, 0xfa, 0x11, 0x12, 0x14, 0xfd, 0x01, 0xfc, 0xdb, 0xfa, 0x0b, 0x81, 0xbf, 0xff, 0x0f, 0xec, 0xff, 0xf8, 0xe6, 0xe2, 0x26, 0x04, 0xef, 0x2c, 0x07, 0x53, 0xd5, 0xfe, 0x09, 0xcc, 0xfc, 0xff, 0x05, 0xf3, 0xa3, 0x68, 0x29, 0x8e, 0xd3, 0xf7, 0x7f, 0xfe, 0x3e, 0x01, 0xf8, 0xda, 0xa2, 0xfe, 0xff, 0xff, 0x04, 0x00, 0x00, 0x00, 0x40, 0x00, 0x00, 0x00, 0x42, 0xf8, 0xff, 0xff, 0x85, 0x03, 0x00, 0x00, 0xbf, 0x03, 0x00, 0x00, 0xfc, 0x03, 0x00, 0x00, 0x63, 0x04, 0x00, 0x00, 0xdc, 0x08, 0x00, 0x00, 0x3a, 0xff, 0xff, 0xff, 0x50, 0xff, 0xff, 0xff, 0xae, 0x0e, 0x00, 0x00, 0x98, 0x05, 0x00, 0x00, 0x17, 0x08, 0x00, 0x00, 0x4c, 0x00, 0x00, 0x00, 0xb1, 0x0c, 0x00, 0x00, 0x07, 0x08, 0x00, 0x00, 0xc3, 0x03, 0x00, 0x00, 0x25, 0x0d, 0x00, 0x00, 0xee, 0xfe, 0xff, 0xff, 0x04, 0x00, 0x00, 0x00, 0x50, 0x00, 0x00, 0x00, 0x4d, 0x1e, 0x25, 0xbe, 0xa2, 0x67, 0x99, 0x81, 0xc2, 0x94, 0x1e, 0xa5, 0x98, 0x35, 0x43, 0xe8, 0xf8, 0x15, 0xd5, 0x13, 0x3f, 0xc5, 0xe8, 0x1b, 0x30, 0xea, 0xbb, 0x4a, 0x24, 0x81, 0x2c, 0xf6, 0xf0, 0x0d, 0x05, 0x3b, 0xfe, 0xfb, 0xff, 0x21, 0x81, 0xfc, 0x13, 0x0b, 0xfb, 0xec, 0xf2, 0xc9, 0x9e, 0xfc, 0x69, 0xa7, 0x16, 0xed, 0x2a, 0x5c, 0xdb, 0x24, 0x12, 0x1f, 0xde, 0xd9, 0x81, 0x2e, 0x37, 0x81, 0xe5, 0xe9, 0xb6, 0xe2, 0xc5, 0xfa, 0x1b, 0x38, 0x4a, 0x8b, 0x63, 0x44, 0x03, 0x04, 0x4a, 0xff, 0xff, 0xff, 0x04, 0x00, 0x00, 0x00, 0x14, 0x00, 0x00, 0x00, 0x6b, 0x01, 0x00, 0x00, 0x2e, 0xff, 0xff, 0xff, 0x73, 0xfe, 0xff, 0xff, 0xd4, 0x01, 0x00, 0x00, 0x2b, 0x00, 0x00, 0x00, 0x38, 0xff, 0xff, 0xff, 0x3c, 0xff, 0xff, 0xff, 0x0f, 0x00, 0x00, 0x00, 0x4d, 0x4c, 0x49, 0x52, 0x20, 0x43, 0x6f, 0x6e, 0x76, 0x65, 0x72, 0x74, 0x65, 0x64, 0x2e, 0x00, 0x01, 0x00, 0x00, 0x00, 0x14, 0x00, 0x00, 0x00, 0x00, 0x00, 0x0e, 0x00, 0x18, 0x00, 0x14, 0x00, 0x10, 0x00, 0x0c, 0x00, 0x08, 0x00, 0x04, 0x00, 0x0e, 0x00, 0x00, 0x00, 0x14, 0x00, 0x00, 0x00, 0x1c, 0x00, 0x00, 0x00, 0x28, 0x01, 0x00, 0x00, 0x2c, 0x01, 0x00, 0x00, 0x30, 0x01, 0x00, 0x00, 0x04, 0x00, 0x00, 0x00, 0x6d, 0x61, 0x69, 0x6e, 0x00, 0x00, 0x00, 0x00, 0x04, 0x00, 0x00, 0x00, 0xd0, 0x00, 0x00, 0x00, 0x88, 0x00, 0x00, 0x00, 0x50, 0x00, 0x00, 0x00, 0x14, 0x00, 0x00, 0x00, 0x00, 0x00, 0x0e, 0x00, 0x1a, 0x00, 0x14, 0x00, 0x10, 0x00, 0x0c, 0x00, 0x0b, 0x00, 0x04, 0x00, 0x0e, 0x00, 0x00, 0x00, 0x1c, 0x00, 0x00, 0x00, 0x00, 0x00, 0x00, 0x09, 0x1c, 0x00, 0x00, 0x00, 0x20, 0x00, 0x00, 0x00, 0x01, 0x00, 0x00, 0x00, 0x00, 0x00, 0x06, 0x00, 0x08, 0x00, 0x04, 0x00, 0x06, 0x00, 0x00, 0x00, 0x00, 0x00, 0x80, 0x3f, 0x01, 0x00, 0x00, 0x00, 0x0a, 0x00, 0x00, 0x00, 0x01, 0x00, 0x00, 0x00, 0x09, 0x00, 0x00, 0x00, 0x96, 0xff, 0xff, 0xff, 0x14, 0x00, 0x00, 0x00, 0x00, 0x00, 0x00, 0x08, 0x10, 0x00, 0x00, 0x00, 0x14, 0x00, 0x00, 0x00, 0x04, 0x00, 0x04, 0x00, 0x04, 0x00, 0x00, 0x00, 0x01, 0x00, 0x00, 0x00, 0x09, 0x00, 0x00, 0x00, 0x03, 0x00, 0x00, 0x00, 0x08, 0x00, 0x00, 0x00, 0x02, 0x00, 0x00, 0x00, 0x01, 0x00, 0x00, 0x00, 0xca, 0xff, 0xff, 0xff, 0x10, 0x00, 0x00, 0x00, 0x00, 0x00, 0x00, 0x08, 0x10, 0x00, 0x00, 0x00, 0x14, 0x00, 0x00, 0x00, 0xba, 0xff, 0xff, 0xff, 0x00, 0x00, 0x00, 0x01, 0x01, 0x00, 0x00, 0x00, 0x08, 0x00, 0x00, 0x00, 0x03, 0x00, 0x00, 0x00, 0x07, 0x00, 0x00, 0x00, 0x04, 0x00, 0x00, 0x00, 0x03, 0x00, 0x00, 0x00, 0x00, 0x00, 0x0e, 0x00, 0x16, 0x00, 0x00, 0x00, 0x10, 0x00, 0x0c, 0x00, 0x0b, 0x00, 0x04, 0x00, 0x0e, 0x00, 0x00, 0x00, 0x18, 0x00, 0x00, 0x00, 0x00, 0x00, 0x00, 0x08, 0x18, 0x00, 0x00, 0x00, 0x1c, 0x00, 0x00, 0x00, 0x00, 0x00, 0x06, 0x00, 0x08, 0x00, 0x07, 0x00, 0x06, 0x00, 0x00, 0x00, 0x00, 0x00, 0x00, 0x01, 0x01, 0x00, 0x00, 0x00, 0x07, 0x00, 0x00, 0x00, 0x03, 0x00, 0x00, 0x00, 0x00, 0x00, 0x00, 0x00, 0x06, 0x00, 0x00, 0x00, 0x05, 0x00, 0x00, 0x00, 0x01, 0x00, 0x00, 0x00, 0x0a, 0x00, 0x00, 0x00, 0x01, 0x00, 0x00, 0x00, 0x00, 0x00, 0x00, 0x00, 0x0b, 0x00, 0x00, 0x00, 0x48, 0x0a, 0x00, 0x00, 0x90, 0x09, 0x00, 0x00, 0xd4, 0x08, 0x00, 0x00, 0x98, 0x07, 0x00, 0x00, 0x74, 0x06, 0x00, 0x00, 0x78, 0x04, 0x00, 0x00, 0x94, 0x02, 0x00, 0x00, 0xe0, 0x01, 0x00, 0x00, 0x24, 0x01, 0x00, 0x00, 0x80, 0x00, 0x00, 0x00, 0x04, 0x00, 0x00, 0x00, 0xfa, 0xf5, 0xff, 0xff, 0x00, 0x00, 0x00, 0x01, 0x18, 0x00, 0x00, 0x00, 0x20, 0x00, 0x00, 0x00, 0x3c, 0x00, 0x00, 0x00, 0x0b, 0x00, 0x00, 0x00, 0x00, 0x00, 0x00, 0x09, 0x50, 0x00, 0x00, 0x00, 0x02, 0x00, 0x00, 0x00, 0xff, 0xff, 0xff, 0xff, 0x05, 0x00, 0x00, 0x00, 0xe4, 0xf5, 0xff, 0xff, 0x08, 0x00, 0x00, 0x00, 0x10, 0x00, 0x00, 0x00, 0x01, 0x00, 0x00, 0x00, 0x80, 0xff, 0xff, 0xff, 0xff, 0xff, 0xff, 0xff, 0x01, 0x00, 0x00, 0x00, 0x00, 0x00, 0x80, 0x3b, 0x1b, 0x00, 0x00, 0x00, 0x53, 0x74, 0x61, 0x74, 0x65, 0x66, 0x75, 0x6c, 0x50, 0x61, 0x72, 0x74, 0x69, 0x74, 0x69, 0x6f, 0x6e, 0x65, 0x64, 0x43, 0x61, 0x6c, 0x6c, 0x5f, 0x31, 0x3a, 0x30, 0x00, 0x02, 0x00, 0x00, 0x00, 0x01, 0x00, 0x00, 0x00, 0x05, 0x00, 0x00, 0x00, 0x72, 0xf6, 0xff, 0xff, 0x00, 0x00, 0x00, 0x01, 0x18, 0x00, 0x00, 0x00, 0x20, 0x00, 0x00, 0x00, 0x40, 0x00, 0x00, 0x00, 0x0a, 0x00, 0x00, 0x00, 0x00, 0x00, 0x00, 0x09, 0x78, 0x00, 0x00, 0x00, 0x02, 0x00, 0x00, 0x00, 0xff, 0xff, 0xff, 0xff, 0x05, 0x00, 0x00, 0x00, 0x5c, 0xf6, 0xff, 0xff, 0x08, 0x00, 0x00, 0x00, 0x14, 0x00, 0x00, 0x00, 0x01, 0x00, 0x00, 0x00, 0x1f, 0x00, 0x00, 0x00, 0x00, 0x00, 0x00, 0x00, 0x00, 0x00, 0x00, 0x00, 0x01, 0x00, 0x00, 0x00, 0x48, 0x9a, 0x80, 0x3e, 0x3c, 0x00, 0x00, 0x00, 0x73, 0x65, 0x71, 0x75, 0x65, 0x6e, 0x74, 0x69, 0x61, 0x6c, 0x5f, 0x31, 0x2f, 0x64, 0x65, 0x6e, 0x73, 0x65, 0x5f, 0x32, 0x5f, 0x31, 0x2f, 0x4d, 0x61, 0x74, 0x4d, 0x75, 0x6c, 0x3b, 0x73, 0x65, 0x71, 0x75, 0x65, 0x6e, 0x74, 0x69, 0x61, 0x6c, 0x5f, 0x31, 0x2f, 0x64, 0x65, 0x6e, 0x73, 0x65, 0x5f, 0x32, 0x5f, 0x31, 0x2f, 0x42, 0x69, 0x61, 0x73, 0x41, 0x64, 0x64, 0x00, 0x00, 0x00, 0x00, 0x02, 0x00, 0x00, 0x00, 0x01, 0x00, 0x00, 0x00, 0x05, 0x00, 0x00, 0x00, 0x12, 0xf7, 0xff, 0xff, 0x00, 0x00, 0x00, 0x01, 0x18, 0x00, 0x00, 0x00, 0x20, 0x00, 0x00, 0x00, 0x3c, 0x00, 0x00, 0x00, 0x09, 0x00, 0x00, 0x00, 0x00, 0x00, 0x00, 0x09, 0x90, 0x00, 0x00, 0x00, 0x02, 0x00, 0x00, 0x00, 0xff, 0xff, 0xff, 0xff, 0x10, 0x00, 0x00, 0x00, 0xfc, 0xf6, 0xff, 0xff, 0x08, 0x00, 0x00, 0x00, 0x10, 0x00, 0x00, 0x00, 0x01, 0x00, 0x00, 0x00, 0x80, 0xff, 0xff, 0xff, 0xff, 0xff, 0xff, 0xff, 0x01, 0x00, 0x00, 0x00, 0xa4, 0xcf, 0xab, 0x3d, 0x58, 0x00, 0x00, 0x00, 0x73, 0x65, 0x71, 0x75, 0x65, 0x6e, 0x74, 0x69, 0x61, 0x6c, 0x5f, 0x31, 0x2f, 0x64, 0x65, 0x6e, 0x73, 0x65, 0x5f, 0x31, 0x5f, 0x32, 0x2f, 0x4d, 0x61, 0x74, 0x4d, 0x75, 0x6c, 0x3b, 0x73, 0x65, 0x71, 0x75, 0x65, 0x6e, 0x74, 0x69, 0x61, 0x6c, 0x5f, 0x31, 0x2f, 0x64, 0x65, 0x6e, 0x73, 0x65, 0x5f, 0x31, 0x5f, 0x32, 0x2f, 0x52, 0x65, 0x6c, 0x75, 0x3b, 0x73, 0x65, 0x71, 0x75, 0x65, 0x6e, 0x74, 0x69, 0x61, 0x6c, 0x5f, 0x31, 0x2f, 0x64, 0x65, 0x6e, 0x73, 0x65, 0x5f, 0x31, 0x5f, 0x32, 0x2f, 0x42, 0x69, 0x61, 0x73, 0x41, 0x64, 0x64, 0x00, 0x00, 0x00, 0x00, 0x02, 0x00, 0x00, 0x00, 0x01, 0x00, 0x00, 0x00, 0x10, 0x00, 0x00, 0x00, 0xca, 0xf7, 0xff, 0xff, 0x00, 0x00, 0x00, 0x01, 0x18, 0x00, 0x00, 0x00, 0x20, 0x00, 0x00, 0x00, 0x3c, 0x00, 0x00, 0x00, 0x08, 0x00, 0x00, 0x00, 0x00, 0x00, 0x00, 0x09, 0x88, 0x00, 0x00, 0x00, 0x02, 0x00, 0x00, 0x00, 0xff, 0xff, 0xff, 0xff, 0x20, 0x00, 0x00, 0x00, 0xb4, 0xf7, 0xff, 0xff, 0x08, 0x00, 0x00, 0x00, 0x10, 0x00, 0x00, 0x00, 0x01, 0x00, 0x00, 0x00, 0x80, 0xff, 0xff, 0xff, 0xff, 0xff, 0xff, 0xff, 0x01, 0x00, 0x00, 0x00, 0x09, 0xfb, 0x22, 0x3d, 0x52, 0x00, 0x00, 0x00, 0x73, 0x65, 0x71, 0x75, 0x65, 0x6e, 0x74, 0x69, 0x61, 0x6c, 0x5f, 0x31, 0x2f, 0x64, 0x65, 0x6e, 0x73, 0x65, 0x5f, 0x31, 0x2f, 0x4d, 0x61, 0x74, 0x4d, 0x75, 0x6c, 0x3b, 0x73, 0x65, 0x71, 0x75, 0x65, 0x6e, 0x74, 0x69, 0x61, 0x6c, 0x5f, 0x31, 0x2f, 0x64, 0x65, 0x6e, 0x73, 0x65, 0x5f, 0x31, 0x2f, 0x52, 0x65, 0x6c, 0x75, 0x3b, 0x73, 0x65, 0x71, 0x75, 0x65, 0x6e, 0x74, 0x69, 0x61, 0x6c, 0x5f, 0x31, 0x2f, 0x64, 0x65, 0x6e, 0x73, 0x65, 0x5f, 0x31, 0x2f, 0x42, 0x69, 0x61, 0x73, 0x41, 0x64, 0x64, 0x00, 0x00, 0x02, 0x00, 0x00, 0x00, 0x01, 0x00, 0x00, 0x00, 0x20, 0x00, 0x00, 0x00, 0x2e, 0xf9, 0xff, 0xff, 0x00, 0x00, 0x00, 0x01, 0x14, 0x00, 0x00, 0x00, 0xa8, 0x01, 0x00, 0x00, 0x07, 0x00, 0x00, 0x00, 0x00, 0x00, 0x00, 0x09, 0xbc, 0x01, 0x00, 0x00, 0x54, 0xf8, 0xff, 0xff, 0x08, 0x00, 0x00, 0x00, 0x0c, 0x01, 0x00, 0x00, 0x20, 0x00, 0x00, 0x00, 0x00, 0x00, 0x00, 0x00, 0x00, 0x00, 0x00, 0x00, 0x00, 0x00, 0x00, 0x00, 0x00, 0x00, 0x00, 0x00, 0x00, 0x00, 0x00, 0x00, 0x00, 0x00, 0x00, 0x00, 0x00, 0x00, 0x00, 0x00, 0x00, 0x00, 0x00, 0x00, 0x00, 0x00, 0x00, 0x00, 0x00, 0x00, 0x00, 0x00, 0x00, 0x00, 0x00, 0x00, 0x00, 0x00, 0x00, 0x00, 0x00, 0x00, 0x00, 0x00, 0x00, 0x00, 0x00, 0x00, 0x00, 0x00, 0x00, 0x00, 0x00, 0x00, 0x00, 0x00, 0x00, 0x00, 0x00, 0x00, 0x00, 0x00, 0x00, 0x00, 0x00, 0x00, 0x00, 0x00, 0x00, 0x00, 0x00, 0x00, 0x00, 0x00, 0x00, 0x00, 0x00, 0x00, 0x00, 0x00, 0x00, 0x00, 0x00, 0x00, 0x00, 0x00, 0x00, 0x00, 0x00, 0x00, 0x00, 0x00, 0x00, 0x00, 0x00, 0x00, 0x00, 0x00, 0x00, 0x00, 0x00, 0x00, 0x00, 0x00, 0x00, 0x00, 0x00, 0x00, 0x00, 0x00, 0x00, 0x00, 0x00, 0x00, 0x00, 0x00, 0x00, 0x00, 0x00, 0x00, 0x00, 0x00, 0x00, 0x00, 0x00, 0x00, 0x00, 0x00, 0x00, 0x00, 0x00, 0x00, 0x00, 0x00, 0x00, 0x00, 0x00, 0x00, 0x00, 0x00, 0x00, 0x00, 0x00, 0x00, 0x00, 0x00, 0x00, 0x00, 0x00, 0x00, 0x00, 0x00, 0x00, 0x00, 0x00, 0x00, 0x00, 0x00, 0x00, 0x00, 0x00, 0x00, 0x00, 0x00, 0x00, 0x00, 0x00, 0x00, 0x00, 0x00, 0x00, 0x00, 0x00, 0x00, 0x00, 0x00, 0x00, 0x00, 0x00, 0x00, 0x00, 0x00, 0x00, 0x00, 0x00, 0x00, 0x00, 0x00, 0x00, 0x00, 0x00, 0x00, 0x00, 0x00, 0x00, 0x00, 0x00, 0x00, 0x00, 0x00, 0x00, 0x00, 0x00, 0x00, 0x00, 0x00, 0x00, 0x00, 0x00, 0x00, 0x00, 0x00, 0x00, 0x00, 0x00, 0x00, 0x00, 0x00, 0x00, 0x00, 0x00, 0x00, 0x00, 0x00, 0x00, 0x00, 0x00, 0x00, 0x00, 0x00, 0x00, 0x00, 0x00, 0x00, 0x00, 0x00, 0x00, 0x00, 0x00, 0x00, 0x00, 0x00, 0x00, 0x00, 0x00, 0x00, 0x00, 0x00, 0x00, 0x00, 0x00, 0x00, 0x20, 0x00, 0x00, 0x00, 0xef, 0xf0, 0xd1, 0x3b, 0x65, 0xce, 0xf3, 0x3b, 0x78, 0x8e, 0xf9, 0x3b, 0x13, 0x18, 0xc9, 0x3b, 0x2e, 0x4c, 0x11, 0x3c, 0x7f, 0x70, 0xeb, 0x3b, 0x0d, 0x9c, 0xfd, 0x3b, 0x03, 0x34, 0xfb, 0x3b, 0xd0, 0x75, 0x1d, 0x3c, 0x03, 0x8a, 0xe8, 0x3b, 0xf2, 0xc3, 0x12, 0x3c, 0x5c, 0x10, 0x2d, 0x3c, 0xd6, 0x52, 0x3f, 0x3c, 0x4e, 0xad, 0x07, 0x3c, 0x0d, 0xd3, 0xdf, 0x3b, 0x72, 0x11, 0xb8, 0x3b, 0xfa, 0x5a, 0xfe, 0x3b, 0xde, 0x46, 0x00, 0x3c, 0x18, 0xa1, 0xef, 0x3b, 0x4b, 0x12, 0x00, 0x3c, 0x92, 0xba, 0xe7, 0x3b, 0xf0, 0x0c, 0xfe, 0x3b, 0xfe, 0xad, 0x1e, 0x3c, 0xa3, 0x8d, 0x0e, 0x3c, 0x22, 0x3f, 0xad, 0x3b, 0xb7, 0x78, 0x0f, 0x3c, 0xfb, 0xbf, 0x05, 0x3c, 0x3a, 0xb4, 0xdc, 0x3b, 0xe6, 0xdb, 0x19, 0x3c, 0x29, 0x38, 0x18, 0x3c, 0x82, 0xdb, 0x25, 0x3c, 0x4e, 0x13, 0x20, 0x3c, 0x1b, 0x00, 0x00, 0x00, 0x73, 0x65, 0x71, 0x75, 0x65, 0x6e, 0x74, 0x69, 0x61, 0x6c, 0x5f, 0x31, 0x2f, 0x64, 0x65, 0x6e, 0x73, 0x65, 0x5f, 0x31, 0x2f, 0x4d, 0x61, 0x74, 0x4d, 0x75, 0x6c, 0x00, 0x02, 0x00, 0x00, 0x00, 0x20, 0x00, 0x00, 0x00, 0x45, 0x00, 0x00, 0x00, 0x0e, 0xfb, 0xff, 0xff, 0x00, 0x00, 0x00, 0x01, 0x14, 0x00, 0x00, 0x00, 0xa8, 0x01, 0x00, 0x00, 0x06, 0x00, 0x00, 0x00, 0x00, 0x00, 0x00, 0x02, 0xd8, 0x01, 0x00, 0x00, 0x34, 0xfa, 0xff, 0xff, 0x08, 0x00, 0x00, 0x00, 0x0c, 0x01, 0x00, 0x00, 0x20, 0x00, 0x00, 0x00, 0x00, 0x00, 0x00, 0x00, 0x00, 0x00, 0x00, 0x00, 0x00, 0x00, 0x00, 0x00, 0x00, 0x00, 0x00, 0x00, 0x00, 0x00, 0x00, 0x00, 0x00, 0x00, 0x00, 0x00, 0x00, 0x00, 0x00, 0x00, 0x00, 0x00, 0x00, 0x00, 0x00, 0x00, 0x00, 0x00, 0x00, 0x00, 0x00, 0x00, 0x00, 0x00, 0x00, 0x00, 0x00, 0x00, 0x00, 0x00, 0x00, 0x00, 0x00, 0x00, 0x00, 0x00, 0x00, 0x00, 0x00, 0x00, 0x00, 0x00, 0x00, 0x00, 0x00, 0x00, 0x00, 0x00, 0x00, 0x00, 0x00, 0x00, 0x00, 0x00, 0x00, 0x00, 0x00, 0x00, 0x00, 0x00, 0x00, 0x00, 0x00, 0x00, 0x00, 0x00, 0x00, 0x00, 0x00, 0x00, 0x00, 0x00, 0x00, 0x00, 0x00, 0x00, 0x00, 0x00, 0x00, 0x00, 0x00, 0x00, 0x00, 0x00, 0x00, 0x00, 0x00, 0x00, 0x00, 0x00, 0x00, 0x00, 0x00, 0x00, 0x00, 0x00, 0x00, 0x00, 0x00, 0x00, 0x00, 0x00, 0x00, 0x00, 0x00, 0x00, 0x00, 0x00, 0x00, 0x00, 0x00, 0x00, 0x00, 0x00, 0x00, 0x00, 0x00, 0x00, 0x00, 0x00, 0x00, 0x00, 0x00, 0x00, 0x00, 0x00, 0x00, 0x00, 0x00, 0x00, 0x00, 0x00, 0x00, 0x00, 0x00, 0x00, 0x00, 0x00, 0x00, 0x00, 0x00, 0x00, 0x00, 0x00, 0x00, 0x00, 0x00, 0x00, 0x00, 0x00, 0x00, 0x00, 0x00, 0x00, 0x00, 0x00, 0x00, 0x00, 0x00, 0x00, 0x00, 0x00, 0x00, 0x00, 0x00, 0x00, 0x00, 0x00, 0x00, 0x00, 0x00, 0x00, 0x00, 0x00, 0x00, 0x00, 0x00, 0x00, 0x00, 0x00, 0x00, 0x00, 0x00, 0x00, 0x00, 0x00, 0x00, 0x00, 0x00, 0x00, 0x00, 0x00, 0x00, 0x00, 0x00, 0x00, 0x00, 0x00, 0x00, 0x00, 0x00, 0x00, 0x00, 0x00, 0x00, 0x00, 0x00, 0x00, 0x00, 0x00, 0x00, 0x00, 0x00, 0x00, 0x00, 0x00, 0x00, 0x00, 0x00, 0x00, 0x00, 0x00, 0x00, 0x00, 0x00, 0x00, 0x00, 0x00, 0x00, 0x00, 0x00, 0x00, 0x00, 0x00, 0x00, 0x00, 0x00, 0x00, 0x00, 0x00, 0x00, 0x00, 0x20, 0x00, 0x00, 0x00, 0x95, 0xfc, 0xfe, 0x39, 0x18, 0x0f, 0x14, 0x3a, 0x0e, 0x8d, 0x17, 0x3a, 0xc5, 0x3d, 0xf4, 0x39, 0x16, 0x79, 0x30, 0x3a, 0x5c, 0xfa, 0x0e, 0x3a, 0x29, 0x03, 0x1a, 0x3a, 0x0d, 0x8d, 0x18, 0x3a, 0xca, 0x3e, 0x3f, 0x3a, 0x76, 0x37, 0x0d, 0x3a, 0x7a, 0x41, 0x32, 0x3a, 0x6a, 0x32, 0x52, 0x3a, 0xdc, 0x5f, 0x68, 0x3a, 0xc5, 0xc9, 0x24, 0x3a, 0xa4, 0xec, 0x07, 0x3a, 0xf1, 0x8f, 0xdf, 0x39, 0x1b, 0x77, 0x1a, 0x3a, 0xdc, 0xcc, 0x1b, 0x3a, 0xba, 0x85, 0x11, 0x3a, 0x01, 0x8d, 0x1b, 0x3a, 0x7c, 0xb9, 0x0c, 0x3a, 0xb7, 0x47, 0x1a, 0x3a, 0xf3, 0xb9, 0x40, 0x3a, 0xce, 0x23, 0x2d, 0x3a, 0x39, 0x6b, 0xd2, 0x39, 0x52, 0x41, 0x2e, 0x3a, 0x99, 0x72, 0x22, 0x3a, 0x87, 0x07, 0x06, 0x3a, 0x11, 0xdf, 0x3a, 0x3a, 0x44, 0xe1, 0x38, 0x3a, 0xba, 0x71, 0x49, 0x3a, 0xee, 0x6b, 0x42, 0x3a, 0x36, 0x00, 0x00, 0x00, 0x73, 0x65, 0x71, 0x75, 0x65, 0x6e, 0x74, 0x69, 0x61, 0x6c, 0x5f, 0x31, 0x2f, 0x64, 0x65, 0x6e, 0x73, 0x65, 0x5f, 0x31, 0x2f, 0x52, 0x65, 0x6c, 0x75, 0x3b, 0x73, 0x65, 0x71, 0x75, 0x65, 0x6e, 0x74, 0x69, 0x61, 0x6c, 0x5f, 0x31, 0x2f, 0x64, 0x65, 0x6e, 0x73, 0x65, 0x5f, 0x31, 0x2f, 0x42, 0x69, 0x61, 0x73, 0x41, 0x64, 0x64, 0x00, 0x00, 0x01, 0x00, 0x00, 0x00, 0x20, 0x00, 0x00, 0x00, 0x06, 0xfd, 0xff, 0xff, 0x00, 0x00, 0x00, 0x01, 0x14, 0x00, 0x00, 0x00, 0xe4, 0x00, 0x00, 0x00, 0x05, 0x00, 0x00, 0x00, 0x00, 0x00, 0x00, 0x09, 0xfc, 0x00, 0x00, 0x00, 0x2c, 0xfc, 0xff, 0xff, 0x08, 0x00, 0x00, 0x00, 0x88, 0x00, 0x00, 0x00, 0x10, 0x00, 0x00, 0x00, 0x00, 0x00, 0x00, 0x00, 0x00, 0x00, 0x00, 0x00, 0x00, 0x00, 0x00, 0x00, 0x00, 0x00, 0x00, 0x00, 0x00, 0x00, 0x00, 0x00, 0x00, 0x00, 0x00, 0x00, 0x00, 0x00, 0x00, 0x00, 0x00, 0x00, 0x00, 0x00, 0x00, 0x00, 0x00, 0x00, 0x00, 0x00, 0x00, 0x00, 0x00, 0x00, 0x00, 0x00, 0x00, 0x00, 0x00, 0x00, 0x00, 0x00, 0x00, 0x00, 0x00, 0x00, 0x00, 0x00, 0x00, 0x00, 0x00, 0x00, 0x00, 0x00, 0x00, 0x00, 0x00, 0x00, 0x00, 0x00, 0x00, 0x00, 0x00, 0x00, 0x00, 0x00, 0x00, 0x00, 0x00, 0x00, 0x00, 0x00, 0x00, 0x00, 0x00, 0x00, 0x00, 0x00, 0x00, 0x00, 0x00, 0x00, 0x00, 0x00, 0x00, 0x00, 0x00, 0x00, 0x00, 0x00, 0x00, 0x00, 0x00, 0x00, 0x00, 0x00, 0x00, 0x00, 0x00, 0x00, 0x00, 0x00, 0x00, 0x00, 0x00, 0x00, 0x00, 0x00, 0x00, 0x00, 0x00, 0x00, 0x00, 0x00, 0x00, 0x00, 0x00, 0x00, 0x00, 0x00, 0x10, 0x00, 0x00, 0x00, 0x14, 0xc5, 0x78, 0x3c, 0x55, 0x54, 0xaf, 0x3c, 0x5e, 0x4b, 0x5c, 0x3c, 0x8f, 0x7a, 0xc7, 0x3c, 0x9d, 0xbc, 0xe8, 0x3c, 0xd7, 0x2f, 0x2c, 0x3c, 0xfc, 0x0e, 0xf9, 0x3b, 0x86, 0x54, 0x1e, 0x3c, 0x5e, 0xb0, 0x01, 0x3c, 0xdc, 0xe9, 0x2f, 0x3c, 0xe1, 0xc3, 0x44, 0x3c, 0x35, 0x33, 0xdc, 0x3c, 0x22, 0xe7, 0x23, 0x3c, 0xc3, 0xd0, 0x84, 0x3c, 0xed, 0x12, 0xd0, 0x3c, 0xc6, 0x0e, 0xff, 0x3b, 0x1d, 0x00, 0x00, 0x00, 0x73, 0x65, 0x71, 0x75, 0x65, 0x6e, 0x74, 0x69, 0x61, 0x6c, 0x5f, 0x31, 0x2f, 0x64, 0x65, 0x6e, 0x73, 0x65, 0x5f, 0x31, 0x5f, 0x32, 0x2f, 0x4d, 0x61, 0x74, 0x4d, 0x75, 0x6c, 0x00, 0x00, 0x00, 0x02, 0x00, 0x00, 0x00, 0x10, 0x00, 0x00, 0x00, 0x20, 0x00, 0x00, 0x00, 0x26, 0xfe, 0xff, 0xff, 0x00, 0x00, 0x00, 0x01, 0x14, 0x00, 0x00, 0x00, 0xe4, 0x00, 0x00, 0x00, 0x04, 0x00, 0x00, 0x00, 0x00, 0x00, 0x00, 0x02, 0x18, 0x01, 0x00, 0x00, 0x4c, 0xfd, 0xff, 0xff, 0x08, 0x00, 0x00, 0x00, 0x88, 0x00, 0x00, 0x00, 0x10, 0x00, 0x00, 0x00, 0x00, 0x00, 0x00, 0x00, 0x00, 0x00, 0x00, 0x00, 0x00, 0x00, 0x00, 0x00, 0x00, 0x00, 0x00, 0x00, 0x00, 0x00, 0x00, 0x00, 0x00, 0x00, 0x00, 0x00, 0x00, 0x00, 0x00, 0x00, 0x00, 0x00, 0x00, 0x00, 0x00, 0x00, 0x00, 0x00, 0x00, 0x00, 0x00, 0x00, 0x00, 0x00, 0x00, 0x00, 0x00, 0x00, 0x00, 0x00, 0x00, 0x00, 0x00, 0x00, 0x00, 0x00, 0x00, 0x00, 0x00, 0x00, 0x00, 0x00, 0x00, 0x00, 0x00, 0x00, 0x00, 0x00, 0x00, 0x00, 0x00, 0x00, 0x00, 0x00, 0x00, 0x00, 0x00, 0x00, 0x00, 0x00, 0x00, 0x00, 0x00, 0x00, 0x00, 0x00, 0x00, 0x00, 0x00, 0x00, 0x00, 0x00, 0x00, 0x00, 0x00, 0x00, 0x00, 0x00, 0x00, 0x00, 0x00, 0x00, 0x00, 0x00, 0x00, 0x00, 0x00, 0x00, 0x00, 0x00, 0x00, 0x00, 0x00, 0x00, 0x00, 0x00, 0x00, 0x00, 0x00, 0x00, 0x00, 0x00, 0x00, 0x00, 0x00, 0x00, 0x00, 0x00, 0x00, 0x00, 0x10, 0x00, 0x00, 0x00, 0xa9, 0x60, 0x1e, 0x3a, 0x97, 0x3e, 0x5f, 0x3a, 0xb7, 0x3f, 0x0c, 0x3a, 0x55, 0xfe, 0x7d, 0x3a, 0x94, 0x2b, 0x94, 0x3a, 0x3e, 0x3e, 0xdb, 0x39, 0xb6, 0x8f, 0x9e, 0x39, 0x7e, 0x99, 0xc9, 0x39, 0x90, 0x21, 0xa5, 0x39, 0xfb, 0xfc, 0xdf, 0x39, 0xcf, 0x89, 0xfa, 0x39, 0x55, 0x30, 0x8c, 0x3a, 0xfa, 0xb1, 0xd0, 0x39, 0xb2, 0x1c, 0x29, 0x3a, 0x04, 0x78, 0x84, 0x3a, 0x76, 0x61, 0xa2, 0x39, 0x3a, 0x00, 0x00, 0x00, 0x73, 0x65, 0x71, 0x75, 0x65, 0x6e, 0x74, 0x69, 0x61, 0x6c, 0x5f, 0x31, 0x2f, 0x64, 0x65, 0x6e, 0x73, 0x65, 0x5f, 0x31, 0x5f, 0x32, 0x2f, 0x52, 0x65, 0x6c, 0x75, 0x3b, 0x73, 0x65, 0x71, 0x75, 0x65, 0x6e, 0x74, 0x69, 0x61, 0x6c, 0x5f, 0x31, 0x2f, 0x64, 0x65, 0x6e, 0x73, 0x65, 0x5f, 0x31, 0x5f, 0x32, 0x2f, 0x42, 0x69, 0x61, 0x73, 0x41, 0x64, 0x64, 0x00, 0x00, 0x01, 0x00, 0x00, 0x00, 0x10, 0x00, 0x00, 0x00, 0x5e, 0xff, 0xff, 0xff, 0x00, 0x00, 0x00, 0x01, 0x14, 0x00, 0x00, 0x00, 0x64, 0x00, 0x00, 0x00, 0x03, 0x00, 0x00, 0x00, 0x00, 0x00, 0x00, 0x09, 0x7c, 0x00, 0x00, 0x00, 0x84, 0xfe, 0xff, 0xff, 0x08, 0x00, 0x00, 0x00, 0x34, 0x00, 0x00, 0x00, 0x05, 0x00, 0x00, 0x00, 0x00, 0x00, 0x00, 0x00, 0x00, 0x00, 0x00, 0x00, 0x00, 0x00, 0x00, 0x00, 0x00, 0x00, 0x00, 0x00, 0x00, 0x00, 0x00, 0x00, 0x00, 0x00, 0x00, 0x00, 0x00, 0x00, 0x00, 0x00, 0x00, 0x00, 0x00, 0x00, 0x00, 0x00, 0x00, 0x00, 0x00, 0x00, 0x00, 0x00, 0x00, 0x00, 0x00, 0x00, 0x05, 0x00, 0x00, 0x00, 0x49, 0xdc, 0x02, 0x3c, 0x6d, 0x85, 0x66, 0x3c, 0x10, 0x13, 0x92, 0x3c, 0x51, 0xb4, 0xd5, 0x3b, 0x98, 0xdf, 0x40, 0x3c, 0x1d, 0x00, 0x00, 0x00, 0x73, 0x65, 0x71, 0x75, 0x65, 0x6e, 0x74, 0x69, 0x61, 0x6c, 0x5f, 0x31, 0x2f, 0x64, 0x65, 0x6e, 0x73, 0x65, 0x5f, 0x32, 0x5f, 0x31, 0x2f, 0x4d, 0x61, 0x74, 0x4d, 0x75, 0x6c, 0x00, 0x00, 0x00, 0x02, 0x00, 0x00, 0x00, 0x05, 0x00, 0x00, 0x00, 0x10, 0x00, 0x00, 0x00, 0x00, 0x00, 0x16, 0x00, 0x1c, 0x00, 0x18, 0x00, 0x17, 0x00, 0x10, 0x00, 0x0c, 0x00, 0x08, 0x00, 0x00, 0x00, 0x00, 0x00, 0x00, 0x00, 0x07, 0x00, 0x16, 0x00, 0x00, 0x00, 0x00, 0x00, 0x00, 0x01, 0x14, 0x00, 0x00, 0x00, 0x64, 0x00, 0x00, 0x00, 0x02, 0x00, 0x00, 0x00, 0x00, 0x00, 0x00, 0x02, 0x7c, 0x00, 0x00, 0x00, 0x3c, 0xff, 0xff, 0xff, 0x08, 0x00, 0x00, 0x00, 0x34, 0x00, 0x00, 0x00, 0x05, 0x00, 0x00, 0x00, 0x00, 0x00, 0x00, 0x00, 0x00, 0x00, 0x00, 0x00, 0x00, 0x00, 0x00, 0x00, 0x00, 0x00, 0x00, 0x00, 0x00, 0x00, 0x00, 0x00, 0x00, 0x00, 0x00, 0x00, 0x00, 0x00, 0x00, 0x00, 0x00, 0x00, 0x00, 0x00, 0x00, 0x00, 0x00, 0x00, 0x00, 0x00, 0x00, 0x00, 0x00, 0x00, 0x00, 0x00, 0x05, 0x00, 0x00, 0x00, 0x91, 0xa6, 0x2f, 0x3a, 0x19, 0xb6, 0x9a, 0x3a, 0x6d, 0x12, 0xc4, 0x3a, 0xc8, 0x6c, 0x0f, 0x3a, 0xcb, 0x71, 0x81, 0x3a, 0x1e, 0x00, 0x00, 0x00, 0x73, 0x65, 0x71, 0x75, 0x65, 0x6e, 0x74, 0x69, 0x61, 0x6c, 0x5f, 0x31, 0x2f, 0x64, 0x65, 0x6e, 0x73, 0x65, 0x5f, 0x32, 0x5f, 0x31, 0x2f, 0x42, 0x69, 0x61, 0x73, 0x41, 0x64, 0x64, 0x00, 0x00, 0x01, 0x00, 0x00, 0x00, 0x05, 0x00, 0x00, 0x00, 0x00, 0x00, 0x16, 0x00, 0x20, 0x00, 0x1c, 0x00, 0x1b, 0x00, 0x14, 0x00, 0x10, 0x00, 0x0c, 0x00, 0x00, 0x00, 0x00, 0x00, 0x08, 0x00, 0x07, 0x00, 0x16, 0x00, 0x00, 0x00, 0x00, 0x00, 0x00, 0x01, 0x18, 0x00, 0x00, 0x00, 0x2c, 0x00, 0x00, 0x00, 0x48, 0x00, 0x00, 0x00, 0x01, 0x00, 0x00, 0x00, 0x00, 0x00, 0x00, 0x09, 0x60, 0x00, 0x00, 0x00, 0x02, 0x00, 0x00, 0x00, 0xff, 0xff, 0xff, 0xff, 0x45, 0x00, 0x00, 0x00, 0x0c, 0x00, 0x0c, 0x00, 0x00, 0x00, 0x00, 0x00, 0x08, 0x00, 0x04, 0x00, 0x0c, 0x00, 0x00, 0x00, 0x08, 0x00, 0x00, 0x00, 0x10, 0x00, 0x00, 0x00, 0x01, 0x00, 0x00, 0x00, 0xd5, 0xff, 0xff, 0xff, 0xff, 0xff, 0xff, 0xff, 0x01, 0x00, 0x00, 0x00, 0xc9, 0x76, 0x9b, 0x3d, 0x1e, 0x00, 0x00, 0x00, 0x73, 0x65, 0x72, 0x76, 0x69, 0x6e, 0x67, 0x5f, 0x64, 0x65, 0x66, 0x61, 0x75, 0x6c, 0x74, 0x5f, 0x6b, 0x65, 0x72, 0x61, 0x73, 0x5f, 0x74, 0x65, 0x6e, 0x73, 0x6f, 0x72, 0x3a, 0x30, 0x00, 0x00, 0x02, 0x00, 0x00, 0x00, 0x01, 0x00, 0x00, 0x00, 0x45, 0x00, 0x00, 0x00, 0x02, 0x00, 0x00, 0x00, 0x24, 0x00, 0x00, 0x00, 0x04, 0x00, 0x00, 0x00, 0xf0, 0xff, 0xff, 0xff, 0x19, 0x00, 0x00, 0x00, 0x02, 0x00, 0x00, 0x00, 0x00, 0x00, 0x00, 0x19, 0x0c, 0x00, 0x10, 0x00, 0x0f, 0x00, 0x00, 0x00, 0x08, 0x00, 0x04, 0x00, 0x0c, 0x00, 0x00, 0x00, 0x09, 0x00, 0x00, 0x00, 0x04, 0x00, 0x00, 0x00, 0x00, 0x00, 0x00, 0x09
};
